0000001001100011
0000000100100110
1111110101011101
1111111000101001
0000000001110001
1111111011110101
0000000011111100
0000000001101000
0000000111001001
1111111110000010
0000001001101001
1111110010100100
0000001110111011
0000000000100001
1111111101110000
0000000000101100
0000000001000000
1111110111001101
0000000010000010
0000001001010110
0000000101001110
1111111101100000
1111111110000110
1111111001101001
1111111100101110
0000001001011100
0000001111100111
0000000110011100
0000001000110011
1111111110110001
1111111110110010
0000000100011001
0000000101001111
0000000110101011
1111111110111011
1111111110011011
0000000001001001
1111111100011101
1111110111001000
0000000100100110
1111111111000010
0000000001101110
1111111110110010
0000000110000100
1111111111000100
1111111011000011
0000000000100100
1111111110010000
1111111101011101
0000000011001100
1111111110101001
1111111010000010
1111111011100101
0000000100001011
1111110101111000
0000000000100111
0000000111010111
1111111001111000
1111111011111111
0000001001110010
1111111111101111
0000000001000011
1111110111111001
1111111111010011
0000000010111000
0000001001010110
1111111011111101
1111111001111011
1111110011011100
0000000110000001
0000000011001110
1111111000110101
0000000010011100
0000000011010011
0000001011000010
1111111110011100
1111111101001101
1111111101010011
1111111011100101
0000000110010111
0000000000010010
0000001011011001
0000000101011011
0000001111010111
1111111001100001
1111111101100100
1111110010101101
0000000110010100
0000000001011111
1111110110001100
1111111001001001
1111111111010110
1111111100101110
0000001000001111
1111111001111110
0000001110001000
1111111011101011
1111111000000000
1111111101011111
1111111000101011
1111111001100100
0000000101111010
1111111100101100
1111110011100001
0000001101010011
1111111000110011
0000001100000100
1111110011101111
0000000011101000
1111110111100010
0000000010010100
1111111011000111
0000001001101000
0000000011010111
0000000110111111
1111110101100110
0000000000011000
0000000010101100
1111111010011100
1111111000111001
0000000000011111
0000000010100011
1111111110011000
1111111011000011
0000000001100111
0000000000001000
1111111100000101
0000000011001111
1111111101110011
1111111011000100
0000001000100011
0000000101100011
1111111000110010
0000000000001111
1111111010011000
0000000110011111
0000000111100101
0000000100011110
0000000101110001
1111111110001110
1111111100000000
1111110110101110
0000000110101000
1111111011011110
0000000000010110
1111110110001111
1111110110001001
0000000110101101
0000001010111110
1111111011100010
0000000101101011
0000000100010010
0000000011000001
1111110110001011
1111111000110110
1111111010001011
0000000111010110
0000000110101010
1111111101100011
0000000100010111
0000000011001011
0000000110010100
1111111101011110
0000000011101100
1111111010011010
0000000100101011
1111111101101111
1111111011000100
0000000000101010
0000010000101100
1111111111000110
1111111010011101
1111111111000000
0000000000101011
0000000010100110
0000000001110111
1111111101011010
1111111100111101
0000000001111100
1111111001111101
1111110111111011
0000000110101000
0000000000101100
1111111010000000
0000000111110011
1111110101001100
0000000100101010
0000000110101001
0000000110001001
0000000011010010
1111111010001000
1111111100001001
0000000011110111
1111111111000010
1111111111001100
0000000000000011
0000000011111100
0000000010110111
1111111010000000
0000000000000111
0000000101000000
0000001111010001
0000000110110111
0000001000010011
1111111001111000
1111111001010101
1111111100111110
0000000001111001
1111110111001111
1111110101111001
1111111101110101
0000000101011111
1111111110001111
1111111011011000
1111111100010111
0000001101000101
0000000110111001
0000001011100111
1111111010001011
1111110011111100
0000001100110010
1111111110011101
0000000100101000
1111110001100110
1111110110010101
0000000010010111
0000001010010011
1111110110011110
1111110111011011
0000000000101100
1111110001011001
0000000000001111
1111111011101000
1111111110101011
0000001100010101
1111111011101111
1111111100110110
0000001001110111
1111110111000011
0000001000011100
1111111110101011
0000000000110110
1111110000010011
0000000111100010
0000001001001001
0000001011101010
1111111101101001
1111110010101001
0000000111001111
0000000100111110
1111111110000011
0000001011110011
1111111011011000
1111111011001010
1111111101000010
1111110111000011
1111111000110011
1111111110000111
1111111001001110
0000001001100101
0000000000011101
1111111111010100
0000000111111111
0000001010110011
1111111100100100
0000000101110100
1111110101101011
0000000001111110
0000000001110001
0000000000101001
1111111011010111
0000000101001101
1111111110110100
0000000110110011
0000000011110101
0000000100110110
0000000000101010
0000000011101011
1111111000110110
1111111001111001
0000000110010101
1111111111110100
1111111011111001
1111110100100100
1111111001110000
1111111010101011
1111110101110010
0000001101011110
1111111111011110
0000000100001001
1111110100110010
1111110110110010
1111111000110111
0000001011000010
1111111000101010
0000000001010110
0000000110101100
1111110111001100
0000001001111101
0000000000110100
