1111111111110101
0000000010001100
1111111111000010
1111111111000111
0000000000000001
0000000000111100
1111111101110101
1111111110100011
0000000001100000
0000000001100111
0000000000100010
1111111110110110
1111111111110110
0000000000111000
0000000001000100
0000000000001100
1111111111101110
1111111111101010
1111111111111111
0000000000001100
0000000000101100
0000000000100001
0000000011101010
1111111111010011
0000000000110001
1111111111111010
1111111111110100
1111111111101001
0000000000000100
0000000001010111
