0000000010110110
0000000001000011
0000000010001100
0000000001110110
0000000100110010
1111111111100011
0000000001111101
1111111100110111
0000000011110010
0000000101101000
0000000001100001
0000000001101110
0000000001011001
0000000000001100
0000000100010110
0000000011101101
0000000010110001
0000000010100000
1111111110110100
1111111110001100
1111111111000110
0000000011000001
0000000001000000
0000000100010010
0000000010010110
1111111100100010
1111111001011010
1111111101011110
1111111000001011
1111111011010110
1111111110111010
0000000000001011
1111111010111011
1111111011010000
1111111001010010
0000000010110011
1111111110011011
1111111111000011
1111111111011111
1111111010001001
0000000101101001
0000000101011010
1111111101011100
1111111101000011
1111111110000110
0000000111011010
0000001001100111
0000000011100011
0000000010110011
0000000101011100
1111111110101011
0000000111011010
0000001000001011
0000000101010000
0000000100001100
0000000001101001
0000000000010010
1111111010011001
1111110111110011
1111111110010111
0000000000011010
1111111111001101
1111111010100111
1111110111100000
1111111111010100
0000000001101010
1111111100100001
1111111010010100
1111111000010001
1111111111100011
0000000000101100
1111111100101100
0000000000110111
0000000011101100
0000000100011101