0000001011100110
0000001000001110
1111111110000101
1111110111100011
1111111000011011
0000001000111001
0000000010010111
1111111000110010
1111110101100111
1111110111111111
0000000110010010
1111111101111110
1111111001000011
1111111001110101
1111111000111010
1111111111001000
1111110111110110
1111111011110000
1111111000100101
1111111100100011
1111111001100100
1111111010001001
1111111001010010
1111111101100100
0000000010010011
0000001000101101
1111111001001100
1111110111010000
1111110111110111
1111111011101010
0000001101101010
1111111011110100
1111111001111000
1111111000110000
1111111011110110
0000001011011100
0000000011010111
1111111101100110
1111111011010101
1111111011111011
0000000110110101
0000000010110011
0000000001101110
1111111011001001
1111111100011010
0000000101001010
0000000111011111
0000000110001010
0000001001110101
0000000011011111
0000000001101101
0000000001011111
0000000110100110
0000000100000101
0000001001111011
0000000001101111
0000001000101110
0000001001110000
0000000010011111
0000001001111000
0000000011001110
0000000011011010
0000000110010001
0000000110011000
0000001011000100
0000000011100000
0000000010110101
1111111101110110
1111111111101001
0000000101101010
0000000010010111
0000000011010101
1111111110010111
1111111101100111
0000000000111110
