1111111100100011
1111111101011011
1111111100010000
1111111110000100
1111111011001001
0000000001100110
0000000100000011
0000000000110011
0000000000111000
0000000100000010
1111111101100000
0000000000101111
0000000100111100
0000000110101011
0000000000001010
1111111001011000
0000000000101101
0000000110001010
0000000101000001
0000000001010111
1111111111010100
0000000000001110
0000000101001111
0000000100110011
1111111100001100
0000000010001101
0000000001110010
1111111001111000
1111111111101010
0000000100000110
0000000001111001
0000000000010000
1111110101011000
1111111000111011
0000000011010001
1111111111111111
1111111100011001
1111111000000001
1111111011010111
0000000100110011
0000000011010010
1111111001111110
1111111011101000
1111111101010101
0000000001010000
1111111000111111
1111111101010011
1111111111110101
0000000010010110
0000000001100110
1111111111001110
0000000000010111
0000000001010011
1111111111110100
1111111101000101
1111111111011110
1111111100110111
0000000001001011
1111111100010110
1111111110110011
1111111110110000
0000000010111001
0000000111010000
1111111111000100
1111111111011011
0000000001010010
0000000100001011
0000000011001101
0000000100000010
0000000001100101
0000000001101000
0000000110100000
0000000001111111
1111111111100001
1111111110110010