1111111100000101
1111111100111110
0000000010101011
0000000100011100
0000000010110010
1111111011101001
1111111010101101
1111110100110101
1111110111110110
0000000000100101
1111111111010101
1111111000101100
1111110011011110
1111111000010111
1111111110101000
1111111110110100
1111111111011001
1111111010011011
1111110111111100
1111111011000101
0000000111110010
0000000010100001
0000000001001100
1111111101101001
0000000001011111
1111111110001001
0000000100000010
0000000010101010
0000000010000000
1111111111100000
1111111001110001
1111111011111001
1111111110010000
1111111110110101
1111111011111100
1111111110110010
1111111110111111
1111111010001100
1111111110001010
0000000000110010
1111111110100101
1111111100011011
1111111101111011
0000000001110001
1111111101011101
0000000001110000
0000000010000000
1111111110011111
1111111111111101
1111111111000011
0000000000000111
0000000000011001
1111111110001001
1111111010011010
1111111110101100
0000000101010100
0000000100111001
0000000100001001
0000000100111000
1111111100001010
0000000011101000
0000000011100110
0000000111001001
0000000010110101
1111111101010100
0000000000100000
1111111111110011
0000000010100111
1111111100010110
0000000011101000
1111111111000101
1111111111011001
0000000010111111
0000000010101000
1111111110000110
